20
21
22
23
24
25
26
27
28
29
30
31
32
33
34
35
36
37
38
39
40
41
42
43
44
45
46
47
48
49
50
51
52
53
54
55
56
57
58
59
60
drivers/scsi/qedf/qedf_io.c
drivers/scsi/qla2xxx/qla_os.c
drivers/net/macsec.c
drivers/net/wireless/virt_wiﬁ.c
net/core/skbuff.c
kernel/bpf/hashtab.c
drivers/nvme/target/fabrics-cmd.c
net/sched/cls_u32.c
fs/cifs/smb2ops.c
drivers/scsi/qedf/qedf_main.c
drivers/usb/serial/mos7720.c
drivers/media/usb/uvc/uvc_driver.c
fs/nfs/nfs4proc.c
fs/nfs/nfs4proc.c
sound/pci/hda/hda_intel.c
drivers/md/dm-zoned-target.c
drivers/inﬁniband/core/device.c
drivers/video/fbdev/clps711x-fb.c
net/l2tp/l2tp_core.c
drivers/net/ethernet/mellanox/mlxsw/core_acl_ﬂex_actions.c
drivers/mtd/spi-nor/nxp-spiﬁ.c
net/netﬁlter/ipvs/ip_vs_app.c
fs/afs/cell.c
fs/nfs/nfs4proc.c
drivers/media/platform/mtk-mdp/mtk_mdp_core.c
drivers/media/platform/exynos4-is/media-dev.c
drivers/media/platform/exynos4-is/ﬁmc-is.c
drivers/media/platform/exynos4-is/media-dev.c
sound/soc/samsung/odroid.c
sound/soc/samsung/odroid.c
sound/soc/samsung/odroid.c
drivers/pci/hotplug/rpadlpar_core.c
drivers/pci/hotplug/rpadlpar_core.c
drivers/pci/hotplug/rpadlpar_core.c
drivers/gpu/drm/drm_syncobj.c
drivers/acpi/utils.c
drivers/gpu/drm/i915/gvt/dmabuf.c
drivers/net/wireless/intersil/p54/p54pci.c
drivers/md/dm-ioctl.c
drivers/scsi/qla2xxx/qla_os.c
drivers/pinctrl/samsung/pinctrl-samsung.c
drivers/pinctrl/samsung/pinctrl-samsung.c
drivers/pinctrl/samsung/pinctrl-samsung.c
drivers/pinctrl/samsung/pinctrl-s3c64xx.c
drivers/pinctrl/samsung/pinctrl-s3c24xx.c
drivers/pinctrl/samsung/pinctrl-exynos.c
drivers/gpu/drm/drm_gem.c
kernel/bpf/syscall.c
drivers/power/reset/zx-reboot.c
drivers/media/i2c/tc358743.c
net/batman-adv/bat_v.c
net/batman-adv/bat_iv_ogm.c
drivers/net/ethernet/netronome/nfp/ﬂower/tunnel_conf.c
drivers/cpufreq/brcmstb-avs-cpufreq.c
drivers/cpufreq/s3c2416-cpufreq.c
drivers/net/dsa/rtl8366rb.c
fs/fuse/cuse.c
drivers/of/resolver.c
drivers/soc/ux500/ux500-soc-id.c
drivers/media/platform/ti-vpe/cal.c
qedf_initiate_abts
qla2x00_abort_srb
macsec_newlink
virt_wiﬁ_newlink
sock_zerocopy_realloc
alloc_htab_elem
nvmet_install_queue
u32_change
open_shroot
qedf_xmit
write_parport_reg_nonblock
uvc_probe
nfs4_alloc_unlockdata
nfs4_alloc_lockdata
atpx_present
dmz_submit_bio
iw_query_port
clps711x_fb_probe
l2tp_tunnel_register
pppol2tp_tunnel_ioctl
nxp_spiﬁ_probe
do_ip_vs_set_ctl
afs_lookup_cell_rcu
nfs41_check_delegation_stateid
mtk_mdp_probe
__of_get_csis_id
ﬁmc_is_probe
ﬁmc_md_register_sensor_entities
odroid_audio_probe (#Line: 238)
odroid_audio_probe (#Line: 239)
odroid_audio_probe (#Line: 274)
ﬁnd_vio_slot_node
dlpar_remove_slot
dlpar_add_slot
drm_syncobj_ﬁnd_fence
acpi_dev_get_ﬁrst_match_name
intel_vgpu_get_dmabuf
p54p_probe
dm_early_create
qla2xxx_eh_abort
samsung_pinctrl_create_functions (#Line: 782)
samsung_pinctrl_create_functions (#Line: 797)
samsung_dt_node_to_map
s3c64xx_eint_eint0_init
s3c24xx_eint_init
exynos_eint_wkup_init
drm_gem_ttm_mmap
bpf_map_get_fd_by_id
zx_reboot_probe
tc358743_probe_of
batadv_v_gw_dump_entry
batadv_iv_gw_dump_entry
nfp_tun_neigh_event_handler
brcm_avs_cpufreq_get
s3c2416_cpufreq_reboot_notiﬁer_evt
rtl8366rb_setup_cascaded_irq
cuse_channel_open
adjust_local_phandle_references
ux500_soc_device_init
of_get_next_port
fc_rport_priv->kref
srb->ref_count
net_device->pcpu_refcnt
module->refcnt
ubuf_info->refcnt
bpf_htab->count
nvmet_ctrl->ref
tc_u_hnode->refcnt
cached_ﬁd->refcount
fc_rport_priv->kref
mos7715_parport->ref_count
uvc_device->ref
nfs4_lock_state->ls_count
nfs4_lock_state->ls_count
kobject->kref
dmz_bioctx->ref
in_device->refcnt
kobject->kref
sock->sk_refcnt
l2tp_session->ref_count
kobject->kref
module->refcnt
afs_cell->usage
cred->usage
kobject->kref
kobject->kref
kobject->kref
kobject->kref
kobject->kref
kobject->kref
kobject->kref
kobject->kref
kobject->kref
kobject->kref
drm_syncobj->refcount
kobject->kref
drm_gem_object->refcount
kobject->kref
mapped_device->holders
srb->ref_count
kobject->kref
kobject->kref
kobject->kref
kobject->kref
kobject->kref
kobject->kref
drm_gem_object->refcount
bpf_map->usercnt
kobject->kref
kobject->kref
batadv_gw_node->refcount
batadv_gw_node->refcount
dst_entry->__refcnt
kobject->kref
kobject->kref
kobject->kref
fuse_conn->count
kobject->kref
kobject->kref
kobject->kref
Fix Commit ID
56efc304b18cbfa4a2b355c0ae817f61acea38c4 %
d2d2b5a5741d317bed1fa38211f1f3b142d8cf7a %
2bce1ebed17da54c65042ec2b962e3234bad5b47 %
1962f86b42ed06ea6af9ff09390243b99d9eb83a %
100f6d8e09905c59be45b6316f8f369c0be1b2d8 !
7f93d1295131c9a8b6ff5eec13eef094f0d42921 %
1a3f540d63152b8db0a12de508bfa03776217d83 %
275c44aa194b7159d1191817b20e076f55f0e620 %
2f94a3125b8742b05a011d62b16f52eb8f9ebe1c %
4262d35c32c652344b6784cad51ec5a0e2e5258b %
2908b076f5198d231de62713cb2b633a3a4b95ac %
f9ffcb0a21e1fa8e64d09ed613d884e054ae8191 %
3028efe03be9c8c4cd7923f0f3c39b2871cc8a8f %
3028efe03be9c8c4cd7923f0f3c39b2871cc8a8f %
6e8aeda224c83c7c7841e143d410b6d0e7bda05e !
0c8e9c2d668278652af028c3cc068c65f66342f4 %
390d3fdcae2da52755b31aa44fcf19ecb5a2488b !
!
fdac751355cd76e049f628afe6acb8ff4b1399f7
f8504f4ca0a0e9f84546ef86e00b24d2ea9a0bd2 !
212dab0541eb916f29d55f914c8e84e13c6b214d !
38ebbe2b7282e985a7acc862892564e8fbbde866 !
62931f59ce9cbabb934a431f48f2f1f441c605ac !
a5fb8e6c02d6a518fb2b1a2b8c2471fa77b69436 !
8c39a39e28b86a4021d9be314ce01019bafa5fdc !
864919ea0380e62adb2503b89825fe358acb8216 %
da79bf41a4d170ca93cc8f3881a70d734a071c37 %
da79bf41a4d170ca93cc8f3881a70d734a071c37 %
da79bf41a4d170ca93cc8f3881a70d734a071c37 %
d832d2b246c516eacb2d0ba53ec17ed59c3cd62b %
d832d2b246c516eacb2d0ba53ec17ed59c3cd62b %
d832d2b246c516eacb2d0ba53ec17ed59c3cd62b %
fb26228bfc4ce3951544848555c0278e2832e618 %
fb26228bfc4ce3951544848555c0278e2832e618 %
fb26228bfc4ce3951544848555c0278e2832e618 %
bc9c80fe01a2570a2fd78abbc492b377b5fda068 %
817b4d64da036f5559297a2fdb82b8b14f4ffdcd %
41d931459b53e32c67a1f8838d1e6826a69ee745 %
8149069db81853570a665f5e5648c0e526dc0e43 %
311f71281ff4b24f86a39c60c959f485c68a6d36 %
8dd9593cc07ad7d999bef81b06789ef873a94881 %
a322b3377f4bac32aa25fb1acb9e7afbbbbd0137 %
a322b3377f4bac32aa25fb1acb9e7afbbbbd0137 %
a322b3377f4bac32aa25fb1acb9e7afbbbbd0137 %
7f028caadf6c37580d0f59c6c094ed09afc04062 %
6fbbcb050802d6ea109f387e961b1dbcc3a80c96 %
5c7f48dd14e892e3e920dd6bbbd52df79e1b3b41 %
9786b65bc61acec63f923978c75e707afbb74bc7 %
781e62823cb81b972dc8652c1827205cda2ac9ac %
f052df96c46dbe52fbacd02189e7906f41686f27 %
64bac6916ef7d9cc57367893aea1544fcad91b9b %
9713cb0cf19f1cec6c007e3b37be0697042b6720 %
b5685d2687d6612adf5eac519eb7008f74dfd1ec %
e62e51af3430745630f0cf76bb41a28d20c4ebdc %
a48ac1c9f294e1a9b692d9458de6e6b58da8b07d %
8ead819f1befae08182c772b6fdf8ac201b34566 %
f32eb9d80470dab05df26b6efd02d653c72e6a11 %
9ad09b1976c562061636ff1e01bfc3a57aebe56b %
60d437bbff358748fcfc3bce5f08da9a6b3761da %
dbc3c6295195267ea7bc48d46030c7b244f8b11e %
%
094efbe748c204fb2e10ebf6f100da926e10fc2f
!
!
%
%
%
!
%
%
!
!
!
!
!
!
%
!
!
!
!
!
!
!
!
!
!
!
!
!
!
!
!
!
!
!
!
!
!
!
!
!
!
!
!
!
!
!
!
!
!
!
!
!
!
!
!
!
!
!
!
!
2488    30th USENIX Security Symposium
USENIX Association